{"vocab_size": 807, "merges": {"81,80": 93, "71,85": 94, "75,80": 95, "86,75": 96, "86,74": 97, "67,80": 98, "81,84": 99, "71,84": 100, "71,80": 101, "96,93": 102, "67,84": 103, "67,78": 104, "85,86": 105, "84,81": 106, "97,71": 107, "75,69": 108, "67,86": 109, "98,70": 110, "84,71": 111, "75,86": 112, "75,85": 113, "95,73": 114, "86,81": 115, "81,72": 116, "78,71": 117, "72,99": 118, "85,24": 119, "74,71": 120, "87,84": 121, "67,102": 122, "67,69": 123, "85,71": 124, "79,71": 125, "87,80": 126, "81,79": 127, "80,71": 128, "101,86": 129, "67,85": 130, "70,71": 131, "94,24": 132, "87,85": 133, "60,120": 134, "82,106": 135, "87,78": 136, "71,79": 137, "81,78": 138, "84,67": 139, "69,86": 140, "69,93": 141, "73,74": 142, "112,91": 143, "87,86": 144, "98,85": 145, "70,75": 146, "69,75": 147, "75,78": 148, "84,87": 149, "69,71": 150, "67,73": 151, "118,79": 152, "67,68": 153, "79,81": 154, "69,127": 155, "68,71": 156, "83,87": 157, "81,73": 158, "84,75": 159, "103,71": 160, "86,100": 161, "67,82": 162, "74,81": 163, "88,71": 164, "86,71": 165, "80,81": 166, "69,102": 167, "82,71": 168, "79,129": 169, "78,75": 170, "85,91": 171, "88,100": 172, "87,142": 173, "70,85": 174, "69,74": 175, "85,75": 176, "73,101": 177, "75,84": 178, "89,99": 179, "75,97": 180, "97,106": 181, "181,173": 182, "96,69": 183, "105,87": 184, "109,71": 185, "71,24": 186, "82,144": 187, "77,85": 188, "81,82": 189, "124,78": 190, "105,149": 191, "87,111": 192, "114,24": 193, "106,79": 194, "75,72": 195, "79,99": 196, "86,84": 197, "82,78": 198, "131,72": 199, "68,91": 200, "94,85": 201, "74,91": 202, "97,100": 203, "190,72": 204, "88,75": 205, "87,79": 206, "101,150": 207, "89,85": 208, "72,194": 209, "77,71": 210, "197,145": 211, "109,67": 212, "103,84": 213, "128,121": 214, "128,86": 215, "78,78": 216, "94,86": 217, "78,67": 218, "89,180": 219, "79,24": 220, "88,94": 221, "81,69": 222, "122,24": 223, "126,70": 224, "100,85": 225, "73,71": 226, "68,93": 227, "184,146": 228, "228,94": 229, "81,133": 230, "95,71": 231, "152,122": 232, "70,212": 233, "162,85": 234, "71,90": 235, "104,85": 236, "68,117": 237, "72,108": 238, "69,81": 239, "103,80": 240, "108,85": 241, "54,71": 242, "93,85": 243, "105,137": 244, "108,104": 245, "166,86": 246, "97,109": 247, "73,87": 248, "151,71": 249, "89,71": 250, "82,100": 251, "67,70": 252, "79,67": 253, "102,85": 254, "98,86": 255, "125,145": 256, "101,96": 257, "70,94": 258, "81,144": 259, "82,117": 260, "19,36": 261, "99,73": 262, "262,98": 263, "75,92": 264, "95,232": 265, "95,161": 266, "73,139": 267, "84,94": 268, "89,74": 269, "84,91": 270, "70,91": 271, "171,244": 272, "215,179": 273, "117,240": 274, "163,89": 275, "191,140": 276, "75,94": 277, "79,85": 278, "99,86": 279, "71,82": 280, "69,121": 281, "49,80": 282, "68,139": 283, "65,28": 284, "29,22": 285, "72,95": 286, "69,159": 287, "148,143": 288, "126,167": 289, "123,86": 290, "95,115": 291, "18,80": 292, "213,63": 293, "112,137": 294, "105,99": 295, "109,94": 296, "85,138": 297, "135,237": 298, "96,125": 299, "125,196": 300, "69,201": 301, "82,74": 302, "74,75": 303, "67,79": 304, "239,131": 305, "177,100": 306, "75,105": 307, "142,86": 308, "158,91": 309, "95,85": 310, "171,80": 311, "100,73": 312, "88,143": 313, "120,79": 314, "109,127": 315, "168,147": 316, "73,80": 317, "96,164": 318, "155,187": 319, "102,24": 320, "70,24": 321, "67,91": 322, "86,149": 323, "96,79": 324, "157,108": 325, "98,248": 326, "326,249": 327, "79,79": 328, "276,192": 329, "106,208": 330, "103,91": 331, "69,78": 332, "71,86": 333, "78,81": 334, "93,71": 335, "81,203": 336, "81,85": 337, "87,68": 338, "198,108": 339, "80,206": 340, "340,68": 341, "27,22": 342, "75,227": 343, "343,123": 344, "344,147": 345, "82,123": 346, "86,67": 347, "258,287": 348, "348,68": 349, "349,94": 350, "153,288": 351, "121,94": 352, "72,289": 353, "71,78": 354, "260,90": 355, "111,86": 356, "356,121": 357, "357,80": 358, "38,39": 359, "153,117": 360, "101,69": 361, "68,84": 362, "71,117": 363, "300,91": 364, "263,264": 365, "141,128": 366, "82,81": 367, "74,67": 368, "135,267": 369, "95,191": 370, "370,167": 371, "166,89": 372, "85,163": 373, "136,70": 374, "74,103": 375, "79,112": 376, "78,24": 377, "107,178": 378, "113,79": 379, "133,94": 380, "70,87": 381, "138,309": 382, "54,41": 383, "311,234": 384, "202,85": 385, "312,91": 386, "100,88": 387, "176,317": 388, "388,236": 389, "169,104": 390, "109,192": 391, "81,70": 392, "135,301": 393, "273,77": 394, "270,82": 395, "157,94": 396, "74,100": 397, "203,71": 398, "129,24": 399, "81,172": 400, "91,81": 401, "97,95": 402, "402,77": 403, "111,104": 404, "47,139": 405, "45,80": 406, "78,327": 407, "111,71": 408, "79,98": 409, "73,330": 410, "111,252": 411, "224,100": 412, "105,110": 413, "99,91": 414, "75,79": 415, "87,124": 416, "136,96": 417, "75,93": 418, "56,91": 419, "419,97": 420, "31,22": 421, "35,24": 422, "175,98": 423, "286,174": 424, "85,346": 425, "96,85": 426, "56,106": 427, "125,130": 428, "428,352": 429, "69,100": 430, "95,187": 431, "68,81": 432, "95,331": 433, "354,124": 434, "72,345": 435, "435,292": 436, "325,188": 437, "437,279": 438, "438,18": 439, "293,26": 440, "440,64": 441, "441,64": 442, "18,204": 443, "204,24": 444, "444,294": 445, "295,94": 446, "88,104": 447, "78,158": 448, "122,119": 449, "362,98": 450, "450,175": 451, "87,102": 452, "91,85": 453, "124,157": 454, "363,169": 455, "298,79": 456, "79,104": 457, "155,355": 458, "71,72": 459, "366,140": 460, "368,164": 461, "369,328": 462, "372,117": 463, "463,70": 464, "464,226": 465, "373,374": 466, "375,220": 467, "141,85": 468, "371,85": 469, "153,259": 470, "159,308": 471, "141,86": 472, "472,106": 473, "473,377": 474, "148,337": 475, "475,189": 476, "476,202": 477, "70,101": 478, "89,81": 479, "44,71": 480, "257,104": 481, "112,85": 482, "268,82": 483, "44,383": 484, "177,71": 485, "485,183": 486, "242,121": 487, "155,79": 488, "488,126": 489, "384,132": 490, "283,95": 491, "214,93": 492, "385,241": 493, "81,68": 494, "184,271": 495, "101,386": 496, "85,316": 497, "497,238": 498, "211,376": 499, "69,314": 500, "500,245": 501, "72,224": 502, "502,67": 503, "503,390": 504, "315,108": 505, "111,218": 506, "96,313": 507, "111,130": 508, "508,93": 509, "509,114": 510, "147,230": 511, "123,74": 512, "69,395": 513, "152,114": 514, "274,114": 515, "214,104": 516, "73,78": 517, "161,85": 518, "73,138": 519, "89,322": 520, "74,138": 521, "97,94": 522, "323,97": 523, "89,130": 524, "68,217": 525, "324,94": 526, "89,80": 527, "72,81": 528, "82,85": 529, "401,87": 530, "118,71": 531, "97,81": 532, "86,24": 533, "62,99": 534, "85,74": 535, "150,75": 536, "404,143": 537, "125,98": 538, "172,91": 539, "95,86": 540, "165,90": 541, "113,74": 542, "84,101": 543, "141,172": 544, "84,112": 545, "195,277": 546, "403,193": 547, "53,333": 548, "548,162": 549, "412,413": 550, "336,24": 551, "59,86": 552, "74,206": 553, "253,210": 554, "85,101": 555, "57,87": 556, "196,71": 557, "415,82": 558, "558,279": 559, "559,255": 560, "97,98": 561, "107,91": 562, "146,102": 563, "31,24": 564, "123,102": 565, "29,24": 566, "417,339": 567, "567,122": 568, "27,28": 569, "104,226": 570, "570,283": 571, "139,183": 572, "68,284": 573, "69,284": 574, "574,24": 575, "341,225": 576, "28,22": 577, "33,22": 578, "27,285": 579, "107,253": 580, "580,183": 581, "109,161": 582, "69,136": 583, "165,73": 584, "584,84": 585, "281,88": 586, "72,100": 587, "257,122": 588, "95,105": 589, "231,103": 590, "140,99": 591, "88,103": 592, "592,75": 593, "103,70": 594, "85,69": 595, "595,104": 596, "100,81": 597, "78,91": 598, "341,100": 599, "86,101": 600, "286,112": 601, "146,111": 602, "167,119": 603, "43,127": 604, "155,68": 605, "82,103": 606, "52,158": 607, "103,180": 608, "72,290": 609, "609,99": 610, "610,75": 611, "611,104": 612, "612,292": 613, "27,19": 614, "436,23": 615, "439,63": 616, "616,90": 617, "293,27": 618, "618,36": 619, "619,64": 620, "442,19": 621, "130,85": 622, "66,66": 623, "443,261": 624, "82,133": 625, "445,119": 626, "82,189": 627, "447,87": 628, "136,296": 629, "111,168": 630, "189,100": 631, "43,93": 632, "235,71": 633, "633,69": 634, "210,453": 635, "58,71": 636, "297,221": 637, "69,94": 638, "458,143": 639, "176,92": 640, "640,186": 641, "365,71": 642, "153,78": 643, "643,94": 644, "135,205": 645, "154,131": 646, "111,78": 647, "122,85": 648, "96,132": 649, "103,175": 650, "299,24": 651, "91,80": 652, "462,114": 653, "85,338": 654, "41,80": 655, "420,93": 656, "137,302": 657, "657,130": 658, "658,264": 659, "659,94": 660, "68,78": 661, "661,222": 662, "662,188": 663, "416,70": 664, "323,105": 665, "168,140": 666, "306,185": 667, "69,99": 668, "427,165": 669, "135,165": 670, "97,241": 671, "302,477": 672, "84,93": 673, "105,296": 674, "86,111": 675, "76,87": 676, "676,70": 677, "677,73": 678, "678,94": 679, "123,254": 680, "196,104": 681, "481,379": 682, "178,86": 683, "683,87": 684, "684,71": 685, "72,222": 686, "127,91": 687, "95,146": 688, "688,205": 689, "689,381": 690, "69,163": 691, "691,108": 692, "71,238": 693, "693,207": 694, "290,114": 695, "67,178": 696, "70,81": 697, "269,109": 698, "68,87": 699, "699,148": 700, "77,114": 701, "483,93": 702, "702,176": 703, "42,75": 704, "704,382": 705, "487,243": 706, "489,108": 707, "707,185": 708, "68,148": 709, "709,170": 710, "492,119": 711, "56,493": 712, "71,70": 713, "170,308": 714, "82,136": 715, "140,85": 716, "43,314": 717, "717,307": 718, "718,270": 719, "90,91": 720, "68,482": 721, "59,126": 722, "104,67": 723, "170,72": 724, "724,186": 725, "68,130": 726, "726,108": 727, "126,112": 728, "154,105": 729, "150,216": 730, "730,136": 731, "731,103": 732, "353,119": 733, "70,159": 734, "124,117": 735, "88,138": 736, "47,101": 737, "86,139": 738, "80,387": 739, "739,230": 740, "214,243": 741, "272,85": 742, "96,94": 743, "218,208": 744, "86,93": 745, "17,85": 746, "118,69": 747, "151,128": 748, "748,426": 749, "316,104": 750, "506,507": 751, "425,71": 752, "494,85": 753, "135,251": 754, "227,70": 755, "251,75": 756, "365,94": 757, "82,48": 758, "33,24": 759, "56,74": 760, "130,188": 761, "77,465": 762, "82,75": 763, "80,391": 764, "75,70": 765, "103,248": 766, "766,169": 767, "141,332": 768, "768,133": 769, "769,418": 770, "381,69": 771, "771,318": 772, "154,221": 773, "306,104": 774, "82,84": 775, "775,95": 776, "776,147": 777, "777,198": 778, "303,142": 779, "79,95": 780, "780,70": 781, "432,271": 782, "43,243": 783, "783,511": 784, "784,80": 785, "785,201": 786, "268,81": 787, "787,121": 788, "319,225": 789, "266,215": 790, "394,119": 791, "135,115": 792, "792,69": 793, "793,138": 794, "273,188": 795, "72,71": 796, "274,193": 797, "111,89": 798, "242,87": 799, "799,106": 800, "96,88": 801, "117,280": 802, "128,89": 803, "185,70": 804, "269,108": 805, "805,74": 806}, "char_level_vocab": {"\n": 15, " ": 16, "'": 17, "(": 18, ")": 19, "*": 20, "+": 21, ",": 22, "-": 23, ".": 24, "/": 25, "0": 26, "1": 27, "2": 28, "3": 29, "4": 30, "5": 31, "6": 32, "7": 33, "8": 34, "9": 35, ":": 36, ";": 37, "<": 38, "=": 39, ">": 40, "A": 41, "B": 42, "C": 43, "D": 44, "E": 45, "F": 46, "G": 47, "H": 48, "I": 49, "J": 50, "K": 51, "L": 52, "M": 53, "N": 54, "O": 55, "P": 56, "Q": 57, "R": 58, "S": 59, "T": 60, "V": 61, "W": 62, "[": 63, "]": 64, "^": 65, "_": 66, "a": 67, "b": 68, "c": 69, "d": 70, "e": 71, "f": 72, "g": 73, "h": 74, "i": 75, "j": 76, "k": 77, "l": 78, "m": 79, "n": 80, "o": 81, "p": 82, "q": 83, "r": 84, "s": 85, "t": 86, "u": 87, "v": 88, "w": 89, "x": 90, "y": 91, "z": 92}, "vocab": {"0": "<PAD>", "1": "<UNK>", "2": "<BOS>", "3": "<EOS>", "4": "<MASK>", "5": "<SEP>", "6": "<CLS>", "7": "<REASON>", "8": "</REASON>", "9": "<WEB>", "10": "</WEB>", "11": "<CODE>", "12": "</CODE>", "13": "<VALUE>", "14": "</VALUE>", "15": "\n", "16": " ", "17": "'", "18": "(", "19": ")", "20": "*", "21": "+", "22": ",", "23": "-", "24": ".", "25": "/", "26": "0", "27": "1", "28": "2", "29": "3", "30": "4", "31": "5", "32": "6", "33": "7", "34": "8", "35": "9", "36": ":", "37": ";", "38": "<", "39": "=", "40": ">", "41": "A", "42": "B", "43": "C", "44": "D", "45": "E", "46": "F", "47": "G", "48": "H", "49": "I", "50": "J", "51": "K", "52": "L", "53": "M", "54": "N", "55": "O", "56": "P", "57": "Q", "58": "R", "59": "S", "60": "T", "61": "V", "62": "W", "63": "[", "64": "]", "65": "^", "66": "_", "67": "a", "68": "b", "69": "c", "70": "d", "71": "e", "72": "f", "73": "g", "74": "h", "75": "i", "76": "j", "77": "k", "78": "l", "79": "m", "80": "n", "81": "o", "82": "p", "83": "q", "84": "r", "85": "s", "86": "t", "87": "u", "88": "v", "89": "w", "90": "x", "91": "y", "92": "z", "93": "on", "94": "es", "95": "in", "96": "ti", "97": "th", "98": "an", "99": "or", "100": "er", "101": "en", "102": "tion", "103": "ar", "104": "al", "105": "st", "106": "ro", "107": "the", "108": "ic", "109": "at", "110": "and", "111": "re", "112": "it", "113": "is", "114": "ing", "115": "to", "116": "of", "117": "le", "118": "for", "119": "s.", "120": "he", "121": "ur", "122": "ation", "123": "ac", "124": "se", "125": "me", "126": "un", "127": "om", "128": "ne", "129": "ent", "130": "as", "131": "de", "132": "es.", "133": "us", "134": "The", "135": "pro", "136": "ul", "137": "em", "138": "ol", "139": "ra", "140": "ct", "141": "con", "142": "gh", "143": "ity", "144": "ut", "145": "ans", "146": "di", "147": "ci", "148": "il", "149": "ru", "150": "ce", "151": "ag", "152": "form", "153": "ab", "154": "mo", "155": "com", "156": "be", "157": "qu", "158": "og", "159": "ri", "160": "are", "161": "ter", "162": "ap", "163": "ho", "164": "ve", "165": "te", "166": "no", "167": "ction", "168": "pe", "169": "ment", "170": "li", "171": "sy", "172": "ver", "173": "ugh", "174": "ds", "175": "ch", "176": "si", "177": "gen", "178": "ir", "179": "wor", "180": "ith", "181": "thro", "182": "through", "183": "tic", "184": "stu", "185": "ate", "186": "e.", "187": "put", "188": "ks", "189": "op", "190": "sel", "191": "stru", "192": "ure", "193": "ing.", "194": "rom", "195": "if", "196": "mor", "197": "tr", "198": "pl", "199": "def", "200": "by", "201": "ess", "202": "hy", "203": "ther", "204": "self", "205": "vi", "206": "um", "207": "ence", "208": "ws", "209": "from", "210": "ke", "211": "trans", "212": "ata", "213": "arr", "214": "neur", "215": "net", "216": "ll", "217": "est", "218": "la", "219": "with", "220": "m.", "221": "ves", "222": "oc", "223": "ation.", "224": "und", "225": "ers", "226": "ge", "227": "bon", "228": "studi", "229": "studies", "230": "ous", "231": "ine", "232": "formation", "233": "data", "234": "aps", "235": "ex", "236": "als", "237": "ble", "238": "fic", "239": "co", "240": "arn", "241": "ics", "242": "Ne", "243": "ons", "244": "stem", "245": "ical", "246": "not", "247": "that", "248": "gu", "249": "age", "250": "we", "251": "per", "252": "ad", "253": "ma", "254": "tions", "255": "ant", "256": "means", "257": "enti", "258": "des", "259": "out", "260": "ple", "261": "):", "262": "org", "263": "organ", "264": "iz", "265": "information", "266": "inter", "267": "gra", "268": "res", "269": "wh", "270": "ry", "271": "dy", "272": "system", "273": "networ", "274": "learn", "275": "how", "276": "struct", "277": "ies", "278": "ms", "279": "ort", "280": "ep", "281": "cur", "282": "In", "283": "bra", "284": "^2", "285": "3,", "286": "fin", "287": "cri", "288": "ility", "289": "unction", "290": "act", "291": "into", "292": "(n", "293": "arr[", "294": "item", "295": "stor", "296": "ates", "297": "sol", "298": "proble", "299": "time", "300": "memor", "301": "cess", "302": "ph", "303": "hi", "304": "am", "305": "code", "306": "gener", "307": "ist", "308": "ght", "309": "ogy", "310": "ins", "311": "syn", "312": "erg", "313": "vity", "314": "hem", "315": "atom", "316": "peci", "317": "gn", "318": "tive", "319": "comput", "320": "tion.", "321": "d.", "322": "ay", "323": "tru", "324": "tim", "325": "quic", "326": "angu", "327": "anguage", "328": "mm", "329": "structure", "330": "rows", "331": "ary", "332": "cl", "333": "et", "334": "lo", "335": "one", "336": "other", "337": "os", "338": "ub", "339": "plic", "340": "num", "341": "numb", "342": "1,", "343": "ibon", "344": "ibonac", "345": "ibonacci", "346": "pac", "347": "ta", "348": "descri", "349": "describ", "350": "describes", "351": "ability", "352": "ures", "353": "function", "354": "el", "355": "plex", "356": "ret", "357": "retur", "358": "return", "359": "<=", "360": "able", "361": "enc", "362": "br", "363": "ele", "364": "memory", "365": "organiz", "366": "conne", "367": "po", "368": "ha", "369": "progra", "370": "instru", "371": "instruction", "372": "now", "373": "sho", "374": "uld", "375": "har", "376": "mit", "377": "l.", "378": "their", "379": "ism", "380": "uses", "381": "du", "382": "ology", "383": "NA", "384": "synaps", "385": "hys", "386": "ergy", "387": "erv", "388": "sign", "389": "signals", "390": "mental", "391": "ature", "392": "od", "393": "process", "394": "network", "395": "ryp", "396": "ques", "397": "her", "398": "there", "399": "ent.", "400": "over", "401": "yo", "402": "thin", "403": "think", "404": "real", "405": "Gra", "406": "En", "407": "language", "408": "ree", "409": "man", "410": "grows", "411": "read", "412": "under", "413": "stand", "414": "ory", "415": "im", "416": "use", "417": "ulti", "418": "ion", "419": "Py", "420": "Pyth", "421": "5,", "422": "9.", "423": "chan", "424": "finds", "425": "spac", "426": "tis", "427": "Pro", "428": "meas", "429": "measures", "430": "cer", "431": "input", "432": "bo", "433": "inary", "434": "else", "435": "fibonacci", "436": "fibonacci(n", "437": "quicks", "438": "quicksort", "439": "quicksort(", "440": "arr[0", "441": "arr[0]", "442": "arr[0]]", "443": "(self", "444": "self.", "445": "self.item", "446": "stores", "447": "val", "448": "log", "449": "ations.", "450": "bran", "451": "branch", "452": "ution", "453": "ys", "454": "sequ", "455": "element", "456": "problem", "457": "mal", "458": "complex", "459": "ef", "460": "connect", "461": "have", "462": "programm", "463": "nowle", "464": "nowled", "465": "nowledge", "466": "should", "467": "harm.", "468": "cons", "469": "instructions", "470": "about", "471": "right", "472": "cont", "473": "contro", "474": "control.", "475": "ilos", "476": "ilosop", "477": "ilosophy", "478": "den", "479": "wo", "480": "De", "481": "ential", "482": "its", "483": "resp", "484": "DNA", "485": "gene", "486": "genetic", "487": "Neur", "488": "comm", "489": "commun", "490": "synapses.", "491": "brain", "492": "neuron", "493": "hysics", "494": "ob", "495": "study", "496": "energy", "497": "speci", "498": "specific", "499": "transmit", "500": "chem", "501": "chemical", "502": "fund", "503": "funda", "504": "fundamental", "505": "atomic", "506": "rela", "507": "tivity", "508": "reas", "509": "reason", "510": "reasoning", "511": "cious", "512": "ach", "513": "cryp", "514": "forming", "515": "learning", "516": "neural", "517": "gl", "518": "ters", "519": "gol", "520": "way", "521": "hol", "522": "thes", "523": "truth", "524": "was", "525": "best", "526": "times", "527": "wn", "528": "fo", "529": "ps", "530": "you", "531": "fore", "532": "tho", "533": "t.", "534": "Wor", "535": "sh", "536": "cei", "537": "reality", "538": "mean", "539": "very", "540": "int", "541": "tex", "542": "ish", "543": "ren", "544": "conver", "545": "rit", "546": "ifies", "547": "thinking.", "548": "Met", "549": "Metap", "550": "understand", "551": "other.", "552": "St", "553": "hum", "554": "make", "555": "sen", "556": "Qu", "557": "more", "558": "imp", "559": "import", "560": "important", "561": "than", "562": "they", "563": "dition", "564": "5.", "565": "action", "566": "3.", "567": "ultiplic", "568": "ultiplication", "569": "12", "570": "alge", "571": "algebra", "572": "ratic", "573": "b^2", "574": "c^2", "575": "c^2.", "576": "numbers", "577": "2,", "578": "7,", "579": "13,", "580": "thema", "581": "thematic", "582": "atter", "583": "cul", "584": "teg", "585": "tegr", "586": "curv", "587": "fer", "588": "entiation", "589": "inst", "590": "inear", "591": "ctor", "592": "var", "593": "vari", "594": "ard", "595": "sc", "596": "scal", "597": "ero", "598": "ly", "599": "number", "600": "ten", "601": "finit", "602": "dire", "603": "ctions.", "604": "Com", "605": "comb", "606": "par", "607": "Log", "608": "arith", "609": "fact", "610": "factor", "611": "factori", "612": "factorial", "613": "factorial(n", "614": "1)", "615": "fibonacci(n-", "616": "quicksort([", "617": "quicksort([x", "618": "arr[1", "619": "arr[1:", "620": "arr[1:]", "621": "arr[0]])", "622": "ass", "623": "__", "624": "(self):", "625": "pus", "626": "self.items.", "627": "pop", "628": "valu", "629": "ulates", "630": "repe", "631": "oper", "632": "Con", "633": "exe", "634": "exec", "635": "keys", "636": "Re", "637": "solves", "638": "ces", "639": "complexity", "640": "siz", "641": "size.", "642": "organize", "643": "abl", "644": "ables", "645": "provi", "646": "mode", "647": "rel", "648": "ations", "649": "ties.", "650": "arch", "651": "time.", "652": "yn", "653": "programming", "654": "sub", "655": "An", "656": "Python", "657": "emph", "658": "emphas", "659": "emphasiz", "660": "emphasizes", "661": "bl", "662": "bloc", "663": "blocks", "664": "used", "665": "trust", "666": "pect", "667": "generate", "668": "cor", "669": "Prote", "670": "prote", "671": "thics", "672": "philosophy", "673": "ron", "674": "states", "675": "tre", "676": "ju", "677": "jud", "678": "judg", "679": "judges", "680": "actions", "681": "moral", "682": "entialism", "683": "irt", "684": "irtu", "685": "irtue", "686": "foc", "687": "omy", "688": "indi", "689": "indivi", "690": "individu", "691": "cho", "692": "choic", "693": "efic", "694": "eficence", "695": "acting", "696": "air", "697": "do", "698": "what", "699": "bu", "700": "buil", "701": "king", "702": "respon", "703": "responsi", "704": "Bi", "705": "Biology", "706": "Neurons", "707": "communic", "708": "communicate", "709": "bil", "710": "billi", "711": "neurons.", "712": "Physics", "713": "ed", "714": "light", "715": "pul", "716": "cts", "717": "Chem", "718": "Chemist", "719": "Chemistry", "720": "xy", "721": "bits", "722": "Sun", "723": "ala", "724": "lif", "725": "life.", "726": "bas", "727": "basic", "728": "unit", "729": "most", "730": "cell", "731": "cellul", "732": "cellular", "733": "functions.", "734": "dri", "735": "sele", "736": "vol", "737": "Gen", "738": "tra", "739": "nerv", "740": "nervous", "741": "neurons", "742": "systems", "743": "ties", "744": "laws", "745": "ton", "746": "'s", "747": "forc", "748": "agne", "749": "agnetis", "750": "pecial", "751": "relativity", "752": "space", "753": "obs", "754": "proper", "755": "bond", "756": "peri", "757": "organizes", "758": "pH", "759": "7.", "760": "Ph", "761": "asks", "762": "knowledge", "763": "pi", "764": "nature", "765": "id", "766": "argu", "767": "argument", "768": "concl", "769": "conclus", "770": "conclusion", "771": "duc", "772": "ductive", "773": "moves", "774": "general", "775": "pr", "776": "prin", "777": "princi", "778": "principl", "779": "high", "780": "min", "781": "mind", "782": "body", "783": "Cons", "784": "Conscious", "785": "Consciousn", "786": "Consciousness", "787": "reso", "788": "resour", "789": "computers", "790": "internet", "791": "networks.", "792": "proto", "793": "protoc", "794": "protocol", "795": "networks", "796": "fe", "797": "learning.", "798": "rew", "799": "Neu", "800": "Neuro", "801": "tiv", "802": "leep", "803": "new", "804": "ated", "805": "whic", "806": "which"}}